TRT-8502-MinMaxCalibration
image: 3ff0e1c4
/Slice_output_0: 3ff0e1c4
/encoder/encoder.0/Conv_output_0: 41b506a0
/encoder/encoder.2/Relu_output_0: 41b506a0
/dense.0/dense.0.0/Conv_output_0: 421ee329
/dense.0/dense.0.2/Relu_output_0: 4208126e
/Concat_output_0: 4208126e
/dense.1/dense.1.0/Conv_output_0: 42e9656a
/dense.1/dense.1.2/Relu_output_0: 42e9656a
/Concat_1_output_0: 42e9656a
/dense.2/dense.2.0/Conv_output_0: 43b05461
/dense.2/dense.2.2/Relu_output_0: 43494bb6
/Concat_2_output_0: 43494bb6
/fuse/fuse.0/fuse.0.0/Conv_output_0: 46173505
/fuse/fuse.0/fuse.0.1/Relu_output_0: 4597481f
/fuse/fuse.1/fuse.1.0/Conv_output_0: 44e9e971
/fuse/fuse.1/fuse.1.2/Relu_output_0: 44c8426b
/fuse/fuse.2/fuse.2.0/Conv_output_0: 44964fe7
/fuse/fuse.2/fuse.2.2/Relu_output_0: 448fc214
/fuse/fuse.3/fuse.3.0/Conv_output_0: 448d55f6
fused: 3c010204
